{"built":"2026-08-09","mark":"▁","chars":51678,"words":2685,"vocab":["\"","%","'","(",")",",","-",".","0","1","2","3","4","5","6","7","8","9",":",";","?","A","B","C","D","E","F","G","H","I","J","K","L","M","N","O","P","Q","R","S","T","U","V","W","X","Y","Z","a","b","c","d","e","f","g","h","i","j","k","l","m","n","o","p","q","r","s","t","u","v","w","x","y","z","°","¹","ü","–","’","⁰","⁻","▁","▁t","▁a","he","in","on","re","at","▁the","is","▁w","er","▁s","it","ing","nd","ou","▁p","▁c","es","en","▁o","ic","an","ar","▁th","▁f","▁m","▁d","al","ion","ed","or","▁b","▁I","▁T","▁is","▁and","le","st","▁to","▁in","▁of","▁h","ro","▁it","▁re","▁n","ct","ly","▁e","▁The","ent","as","▁be","ot","om","ve","▁wh","▁that","ad","il","▁l","ce","et","ol","ver","ation","el","im","▁on","id","▁S","▁B","her","▁g","ow","▁u","▁y","▁con","ig","out","se","▁st","op","▁A","▁C","ter","▁W","▁mo","am","qu","▁an","▁pro","▁you","ut","▁It","▁P","ec","▁r","nt","art","ay","ith","if","▁at","os","▁M","ity","ur","▁H","▁not","▁what","ab","hat","ac","▁ex","▁L","▁as","ere","ld","▁for","▁than","▁with","ang","ist","ul","ure","em","est","▁ab","▁al","▁are","ess","▁do","ra","ect","rom","▁N","▁whe","ke","um","and","gh","pp","ally","hing","ir","ough","ther","▁me","ive","ich","ard","ine","▁part","▁wor","pt","ru","▁1","▁ne","res","▁com","▁dis","▁from","▁ha","▁sh","per","ri","▁E","▁v","ical","ry","▁D","▁he","▁qu","hy","ics","th","▁F","▁about","▁has","▁pe","ould","▁one","▁which","ism","od","pl","ag","ef","ence","ople","ount","us","▁or","▁people","▁un","ions","▁som","ain","ant","ep","ment","ound","uc","▁le","▁That","▁was","20","ble","▁ar","▁ch","▁res","▁sp","ate","▁most","▁no","ear","ict","ost","to","ually","▁G","▁R","▁en","▁cont","▁thing","ill","ind","ore","one","ous","▁ac","▁go","▁other","▁read","ance","ays","ci","end","igh","our","▁k","▁does","▁fa","ame","ers","li","▁can","▁more","▁we","▁when","able","ades","gs","ide","ks","og","oll","ron","▁O","▁What","▁ob","ans","hys","iv","▁act","▁by","▁how","▁ma","▁they","201","ass","ew","ort","ress","ud","very","▁out","▁Bang","▁isn","▁po","▁quest","ace","are","ast","all","ated","ather","ies","iggs","ight","un","ult","▁J","▁Higgs","▁ad","▁any","▁fi","▁have","▁its","▁partic","▁su","▁sy","▁were","adesh","atter","ations","ific","ladesh","now","ons","rit","vers","▁U","▁Bangladesh","▁bec","▁count","▁dec","▁rather","▁se","▁this","▁them","blem","eel","ell","ething","ire","lect","ose","stem","▁Th","▁bet","▁pre","▁question","▁would","▁your","au","arg","ch","hysics","ial","int","ject","nc","nder","old","▁all","▁chang","▁something","▁us","▁who","▁work","ary","ech","eld","ning","oc","so","str","▁j","▁arg","▁being","▁know","▁problem","▁prod","▁system","age","ff","ility","ime","imp","orm","ract","▁In","▁doesn","▁feel","▁here","▁matter","▁pl","▁things","HC","ap","con","ition","oth","rough","uil","ving","▁St","▁ag","▁app","▁att","▁field","▁hard","▁inter","▁into","▁lo","▁pr","▁real","▁tr","ause","elf","ens","ip","iz","ice","icism","ign","ink","ok","ory","te","ual","ue","ust","▁ke","▁been","▁because","▁cl","▁cor","▁const","▁country","▁de","▁so","ark","din","erm","fere","fore","here","pect","ption","row","rustr","ument","ves","▁201","▁vers","▁LHC","▁also","▁but","▁before","▁comp","▁conf","▁days","▁don","▁ev","▁every","▁frustr","▁hold","▁keep","▁mass","▁my","▁same","▁set","▁spec","▁through","▁there","▁where","act","ably","ach","andard","com","ears","gr","ible","ious","iffere","ish","ne","ng","olit","ority","oson","rol","ts","vel","wo","xt","▁3","▁4","▁V","▁Coll","▁There","▁change","▁def","▁dist","▁elect","▁fail","▁gen","▁happ","▁li","▁make","▁object","▁produc","▁ref","▁requ","▁some","▁though","▁up","▁usually","▁version","▁without","ability","arge","ata","ates","cept","echn","ful","gress","hil","ile","ider","ife","ifferent","iment","iss","olog","ome","ond","periment","rib","rong","ruption","und","urn","we","▁2","▁Ch","▁Part","▁This","▁anyone","▁buil","▁cur","▁did","▁different","▁enough","▁get","▁less","▁physics","▁polit","▁particle","▁run","▁time","▁under","▁want","ack","ale","ament","anding","ber","ead","edi","enc","eng","etry","gram","hed","hilos","hilosop","iver","ilgram","imism","irst","irect","ists","ither","onest","ong","red","ruct","ten","uman","ward","▁And","▁But","▁If","▁Milgram","▁Mod","▁Not","▁Ref","▁Sto","▁acc","▁actually","▁both","▁better","▁co","▁expect","▁find","▁first","▁inc","▁inst","▁never","▁nothing","▁off","▁pos","▁poem","▁point","▁progress","▁reg","▁sound","▁see","▁think","▁will","▁whether","▁years","00","ER","ERN","The","ak","ade","ainst","ating","bl","der","dinary","ever","ened","ert","fter","hority","iqu","ires","idence","ional","ise","iverse","oy","ser","sw","ures","uthority","ved","ws","ween","▁7","▁Y","▁Boson","▁CERN","▁Do","▁Model","▁New","▁So","▁Standard","▁They","▁answ","▁argument","▁ass","▁beli","▁between","▁cost","▁compl","▁cons","▁corruption","▁disc","▁el","▁honest","▁human","▁inf","▁life","▁like","▁mean","▁means","▁over","▁ow","▁only","▁par","▁reas","▁rec","▁rel","▁requires","▁sc","▁sl","▁sm","▁space","▁stop","▁techn","▁tra","▁two","▁writ","▁while","ave","agn","ath","ative","cient","conom","dict","ding","econd","ending","ention","hen","ie","ied","imple","ings","ision","led","les","lud","mm","ness","ove","ock","ogn","otic","ounc","rad","rent","riv","ribut","ros","ross","sy","ty","ters","thics","ubl","ural","▁6","▁im","▁our","▁2012","▁Am","▁My","▁Ne","▁Physics","▁Pro","▁Partic","▁Then","▁Un","▁Under","▁Why","▁am","▁authority","▁accept","▁against","▁answer","▁bl","▁coll","▁could","▁crit","▁cult","▁comm","▁contin","▁control","▁current","▁dark","▁des","▁det","▁direct","▁else","▁expl","▁ext","▁fund","▁frustration","▁good","▁had","▁just","▁land","▁line","▁long","▁man","▁move","▁mostly","▁per","▁political","▁problems","▁result","▁sur","▁short","▁should","▁specific","▁stay","▁still","▁sub","▁super","▁tre","▁turn","▁trans","▁vot","▁way","▁why","▁worth","99","aim","app","av","acy","agnet","ants","arly","arter","atri","ational","ationsh","ationship","cent","ds","erg","essimism","etters","hilosophy","ib","iet","ify","ines","ique","its","itut","lu","mmetry","not","nces","ody","onance","ope","osing","other","owed","ows","radict","read","ries","rote","side","standing","ues","uch","ulation","vious","▁5","▁Con","▁Charter","▁Collider","▁Eng","▁Every","▁Had","▁Large","▁Letters","▁Particle","▁Sen","▁Some","▁With","▁Wor","▁after","▁around","▁argu","▁ask","▁assum","▁beh","▁belie","▁care","▁cy","▁claim","▁constra","▁data","▁diss","▁econom","▁eff","▁em","▁electron","▁energ","▁eng","▁experiment","▁four","▁gr","▁grow","▁gener","▁hist","▁happens","▁ind","▁int","▁last","▁least","▁made","▁much","▁mak","▁need","▁news","▁pers","▁post","▁pract","▁place","▁prec","▁prot","▁reason","▁resist","▁second","▁sw","▁sett","▁small","▁stud","▁try","▁those","▁their","▁then","▁val","▁wrong","▁wrote","08","Ob","ail","aces","ached","adl","ali","ality","anism","aniz","arks","arm","asure","atore","bably","eV","eb","eful","engali","ential","epend","ering","erences","ffic","ganiz","ge","got","iation","iew","ily","ior","iding","inci","inis","ipants","isc","ite","itions","lear","liament","most","ments","nce","neath","ood","oving","olve","ological","omp","opeful","oration","ord","osed","osity","ouncil","ounds","own","pons","ready","ributed","self","serv","servation","struct","thing","ting","uct","uine","ublis","vern","ys","▁20","▁19","▁Bengali","▁Both","▁Bangladeshi","▁Council","▁Does","▁Ex","▁How","▁Hadron","▁Mar","▁Natore","▁References","▁Sh","▁World","▁abs","▁already","▁amount","▁ann","▁aren","▁attached","▁attention","▁back","▁built","▁cannot","▁changed","▁come","▁constraint","▁contradict","▁criticism","▁culture","▁disapp","▁disp","▁doing","▁each","▁eas","▁few","▁found","▁fair","▁feeling","▁form","▁giv","▁gu","▁genuine","▁govern","▁happened","▁inv","▁interact","▁keeps","▁larg","▁lear","▁look","▁magnet","▁mech","▁mor","▁makes","▁measure","▁num","▁next","▁op","▁obvious","▁objective","▁ordinary","▁organiz","▁own","▁parliament","▁party","▁percent","▁person","▁princi","▁predict","▁pret","▁proc","▁prop","▁produces","▁rep","▁reader","▁regulation","▁relationship","▁respons","▁scale","▁start","▁stre","▁systems","▁these","▁toward","▁use","▁universe","▁vol","▁won","▁wee","▁world","16","2012","AS","LAS","MS","Observation","TLAS","ake","auc","aboration","adline","ains","ama","amental","anger","ats","atriotic","aucr","body","cc","cientific","comf","comfort","ction","earch","ector","edience","ellig","ement","emp","ency","ered","ertain","ging","hes","hysic","ience","ication","icture","ident","ides","idual","imes","imply","ined","ins","ineering","ingful","ingle","ingly","irm","irt","isions","ital","itive","lict","lish","ll","lp","luding","miss","nal","ner","oks","ognitive","omen","omy","onth","onths","oud","oughly","ousand","ower","oyed","pare","ples","reas","ree","rem","sed","stract","sych","uce","uly","up","ules","urate","ureaucr","uting","ven","velop","where","wor","▁K","▁ident","▁imp","▁ro","▁10","▁100","▁12","▁716","▁AI","▁ATLAS","▁CMS","▁Count","▁Collaboration","▁English","▁Experiment","▁Find","▁From","▁July","▁Mass","▁Most","▁Neither","▁One","▁Si","▁Stoicism","▁Understanding","▁Vid","▁When","▁Where","▁Writ","▁abstract","▁across","▁add","▁adv","▁almost","▁another","▁appear","▁appro","▁asked","▁bad"],"merges":[["▁","t"],["▁","a"],["h","e"],["i","n"],["o","n"],["r","e"],["a","t"],["▁t","he"],["i","s"],["▁","w"],["e","r"],["▁","s"],["i","t"],["in","g"],["n","d"],["o","u"],["▁","p"],["▁","c"],["e","s"],["e","n"],["▁","o"],["i","c"],["a","n"],["a","r"],["▁t","h"],["▁","f"],["▁","m"],["▁","d"],["a","l"],["i","on"],["e","d"],["o","r"],["▁","b"],["▁","I"],["▁","T"],["▁","is"],["▁a","nd"],["l","e"],["s","t"],["▁t","o"],["▁","in"],["▁o","f"],["▁","h"],["r","o"],["▁","it"],["▁","re"],["▁","n"],["c","t"],["l","y"],["▁","e"],["▁T","he"],["en","t"],["a","s"],["▁b","e"],["o","t"],["o","m"],["v","e"],["▁w","h"],["▁th","at"],["a","d"],["i","l"],["▁","l"],["c","e"],["e","t"],["o","l"],["v","er"],["at","ion"],["e","l"],["i","m"],["▁","on"],["i","d"],["▁","S"],["▁","B"],["he","r"],["▁","g"],["o","w"],["▁","u"],["▁","y"],["▁c","on"],["i","g"],["ou","t"],["s","e"],["▁s","t"],["o","p"],["▁","A"],["▁","C"],["t","er"],["▁","W"],["▁m","o"],["a","m"],["q","u"],["▁a","n"],["▁p","ro"],["▁y","ou"],["u","t"],["▁I","t"],["▁","P"],["e","c"],["▁","r"],["n","t"],["ar","t"],["a","y"],["it","h"],["i","f"],["▁a","t"],["o","s"],["▁","M"],["it","y"],["u","r"],["▁","H"],["▁n","ot"],["▁wh","at"],["a","b"],["h","at"],["a","c"],["▁e","x"],["▁","L"],["▁a","s"],["e","re"],["l","d"],["▁f","or"],["▁th","an"],["▁w","ith"],["an","g"],["is","t"],["u","l"],["u","re"],["e","m"],["es","t"],["▁a","b"],["▁a","l"],["▁a","re"],["es","s"],["▁d","o"],["r","a"],["e","ct"],["ro","m"],["▁","N"],["▁w","he"],["k","e"],["u","m"],["a","nd"],["g","h"],["p","p"],["al","ly"],["h","ing"],["i","r"],["ou","gh"],["t","her"],["▁m","e"],["i","ve"],["ic","h"],["ar","d"],["in","e"],["▁p","art"],["▁w","or"],["p","t"],["r","u"],["▁","1"],["▁n","e"],["re","s"],["▁c","om"],["▁d","is"],["▁f","rom"],["▁h","a"],["▁s","h"],["p","er"],["r","i"],["▁","E"],["▁","v"],["ic","al"],["r","y"],["▁","D"],["▁","he"],["▁","qu"],["h","y"],["ic","s"],["t","h"],["▁","F"],["▁ab","out"],["▁h","as"],["▁p","e"],["ou","ld"],["▁on","e"],["▁wh","ich"],["is","m"],["o","d"],["p","l"],["a","g"],["e","f"],["en","ce"],["op","le"],["ou","nt"],["u","s"],["▁o","r"],["▁pe","ople"],["▁u","n"],["ion","s"],["▁s","om"],["a","in"],["an","t"],["e","p"],["m","ent"],["ou","nd"],["u","c"],["▁","le"],["▁T","hat"],["▁w","as"],["2","0"],["b","le"],["▁a","r"],["▁c","h"],["▁re","s"],["▁s","p"],["at","e"],["▁mo","st"],["▁n","o"],["e","ar"],["ic","t"],["o","st"],["t","o"],["u","ally"],["▁","G"],["▁","R"],["▁","en"],["▁con","t"],["▁th","ing"],["il","l"],["in","d"],["o","re"],["on","e"],["ou","s"],["▁a","c"],["▁g","o"],["▁o","ther"],["▁re","ad"],["an","ce"],["ay","s"],["c","i"],["e","nd"],["ig","h"],["ou","r"],["▁","k"],["▁do","es"],["▁f","a"],["am","e"],["er","s"],["l","i"],["▁c","an"],["▁mo","re"],["▁w","e"],["▁whe","n"],["ab","le"],["ad","es"],["g","s"],["id","e"],["k","s"],["o","g"],["ol","l"],["r","on"],["▁","O"],["▁W","hat"],["▁o","b"],["an","s"],["hy","s"],["i","v"],["▁a","ct"],["▁b","y"],["▁h","ow"],["▁m","a"],["▁the","y"],["20","1"],["as","s"],["e","w"],["or","t"],["res","s"],["u","d"],["ver","y"],["▁","out"],["▁B","ang"],["▁is","n"],["▁p","o"],["▁qu","est"],["a","ce"],["a","re"],["a","st"],["al","l"],["at","ed"],["at","her"],["i","es"],["ig","gs"],["igh","t"],["u","n"],["ul","t"],["▁","J"],["▁H","iggs"],["▁a","d"],["▁an","y"],["▁f","i"],["▁ha","ve"],["▁it","s"],["▁part","ic"],["▁s","u"],["▁s","y"],["▁w","ere"],["ades","h"],["at","ter"],["ation","s"],["if","ic"],["l","adesh"],["n","ow"],["on","s"],["r","it"],["ver","s"],["▁","U"],["▁Bang","ladesh"],["▁be","c"],["▁c","ount"],["▁d","ec"],["▁r","ather"],["▁s","e"],["▁th","is"],["▁the","m"],["ble","m"],["e","el"],["el","l"],["et","hing"],["i","re"],["le","ct"],["o","se"],["st","em"],["▁T","h"],["▁be","t"],["▁p","re"],["▁quest","ion"],["▁w","ould"],["▁you","r"],["a","u"],["ar","g"],["c","h"],["hys","ics"],["i","al"],["in","t"],["j","ect"],["n","c"],["nd","er"],["ol","d"],["▁al","l"],["▁ch","ang"],["▁som","ething"],["▁u","s"],["▁wh","o"],["▁wor","k"],["ar","y"],["ec","h"],["el","d"],["n","ing"],["o","c"],["s","o"],["st","r"],["▁","j"],["▁ar","g"],["▁be","ing"],["▁k","now"],["▁pro","blem"],["▁pro","d"],["▁sy","stem"],["ag","e"],["f","f"],["il","ity"],["im","e"],["im","p"],["or","m"],["ra","ct"],["▁I","n"],["▁does","n"],["▁f","eel"],["▁he","re"],["▁m","atter"],["▁p","l"],["▁thing","s"],["H","C"],["a","p"],["c","on"],["it","ion"],["ot","h"],["r","ough"],["u","il"],["v","ing"],["▁S","t"],["▁a","g"],["▁a","pp"],["▁at","t"],["▁fi","eld"],["▁h","ard"],["▁in","ter"],["▁in","to"],["▁l","o"],["▁p","r"],["▁re","al"],["▁t","r"],["au","se"],["el","f"],["en","s"],["i","p"],["i","z"],["ic","e"],["ic","ism"],["ig","n"],["in","k"],["o","k"],["or","y"],["t","e"],["u","al"],["u","e"],["u","st"],["▁","ke"],["▁be","en"],["▁bec","ause"],["▁c","l"],["▁c","or"],["▁con","st"],["▁count","ry"],["▁d","e"],["▁s","o"],["ar","k"],["d","in"],["er","m"],["f","ere"],["f","ore"],["he","re"],["p","ect"],["pt","ion"],["ro","w"],["ru","str"],["um","ent"],["v","es"],["▁","201"],["▁","vers"],["▁L","HC"],["▁al","so"],["▁b","ut"],["▁be","fore"],["▁com","p"],["▁con","f"],["▁d","ays"],["▁d","on"],["▁e","v"],["▁e","very"],["▁f","rustr"],["▁h","old"],["▁ke","ep"],["▁m","ass"],["▁m","y"],["▁s","ame"],["▁s","et"],["▁sp","ec"],["▁th","rough"],["▁the","re"],["▁whe","re"],["a","ct"],["ab","ly"],["ac","h"],["and","ard"],["c","om"],["ear","s"],["g","r"],["i","ble"],["i","ous"],["if","fere"],["is","h"],["n","e"],["n","g"],["ol","it"],["or","ity"],["os","on"],["ro","l"],["t","s"],["ve","l"],["w","o"],["x","t"],["▁","3"],["▁","4"],["▁","V"],["▁C","oll"],["▁The","re"],["▁chang","e"],["▁d","ef"],["▁d","ist"],["▁e","lect"],["▁fa","il"],["▁g","en"],["▁ha","pp"],["▁l","i"],["▁ma","ke"],["▁ob","ject"],["▁prod","uc"],["▁re","f"],["▁re","qu"],["▁som","e"],["▁th","ough"],["▁u","p"],["▁us","ually"],["▁vers","ion"],["▁with","out"],["ab","ility"],["arg","e"],["at","a"],["at","es"],["ce","pt"],["ech","n"],["f","ul"],["g","ress"],["h","il"],["i","le"],["id","er"],["if","e"],["iffere","nt"],["im","ent"],["is","s"],["ol","og"],["om","e"],["on","d"],["per","iment"],["ri","b"],["ron","g"],["ru","ption"],["u","nd"],["ur","n"],["w","e"],["▁","2"],["▁C","h"],["▁P","art"],["▁Th","is"],["▁any","one"],["▁b","uil"],["▁c","ur"],["▁d","id"],["▁d","ifferent"],["▁en","ough"],["▁g","et"],["▁l","ess"],["▁p","hysics"],["▁p","olit"],["▁partic","le"],["▁r","un"],["▁t","ime"],["▁u","nder"],["▁w","ant"],["ac","k"],["al","e"],["am","ent"],["and","ing"],["b","er"],["e","ad"],["ed","i"],["en","c"],["en","g"],["et","ry"],["gr","am"],["he","d"],["hil","os"],["hilos","op"],["i","ver"],["il","gram"],["im","ism"],["ir","st"],["ire","ct"],["ist","s"],["it","her"],["on","est"],["on","g"],["re","d"],["ru","ct"],["t","en"],["um","an"],["w","ard"],["▁A","nd"],["▁B","ut"],["▁I","f"],["▁M","ilgram"],["▁M","od"],["▁N","ot"],["▁R","ef"],["▁S","to"],["▁ac","c"],["▁act","ually"],["▁b","oth"],["▁bet","ter"],["▁c","o"],["▁ex","pect"],["▁f","ind"],["▁f","irst"],["▁in","c"],["▁in","st"],["▁ne","ver"],["▁not","hing"],["▁of","f"],["▁p","os"],["▁po","em"],["▁po","int"],["▁pro","gress"],["▁re","g"],["▁s","ound"],["▁se","e"],["▁th","ink"],["▁w","ill"],["▁whe","ther"],["▁y","ears"],["0","0"],["E","R"],["ER","N"],["T","he"],["a","k"],["ad","e"],["ain","st"],["at","ing"],["b","l"],["d","er"],["din","ary"],["e","ver"],["en","ed"],["er","t"],["f","ter"],["h","ority"],["i","qu"],["i","res"],["id","ence"],["ion","al"],["is","e"],["iver","se"],["o","y"],["s","er"],["s","w"],["ure","s"],["ut","hority"],["v","ed"],["w","s"],["we","en"],["▁","7"],["▁","Y"],["▁B","oson"],["▁C","ERN"],["▁D","o"],["▁Mod","el"],["▁N","ew"],["▁S","o"],["▁St","andard"],["▁The","y"],["▁an","sw"],["▁arg","ument"],["▁as","s"],["▁be","li"],["▁bet","ween"],["▁c","ost"],["▁com","pl"],["▁con","s"],["▁cor","ruption"],["▁dis","c"],["▁e","l"],["▁h","onest"],["▁h","uman"],["▁in","f"],["▁l","ife"],["▁li","ke"],["▁me","an"],["▁me","ans"],["▁o","ver"],["▁o","w"],["▁on","ly"],["▁p","ar"],["▁re","as"],["▁re","c"],["▁re","l"],["▁requ","ires"],["▁s","c"],["▁s","l"],["▁s","m"],["▁sp","ace"],["▁st","op"],["▁t","echn"],["▁t","ra"],["▁t","wo"],["▁w","rit"],["▁wh","ile"],["a","ve"],["ag","n"],["at","h"],["at","ive"],["ci","ent"],["con","om"],["d","ict"],["d","ing"],["ec","ond"],["end","ing"],["ent","ion"],["he","n"],["i","e"],["i","ed"],["imp","le"],["ing","s"],["is","ion"],["l","ed"],["l","es"],["l","ud"],["m","m"],["n","ess"],["o","ve"],["oc","k"],["og","n"],["ot","ic"],["ou","nc"],["r","ad"],["re","nt"],["ri","v"],["rib","ut"],["ro","s"],["ros","s"],["s","y"],["t","y"],["ter","s"],["th","ics"],["u","bl"],["ur","al"],["▁","6"],["▁","im"],["▁","our"],["▁201","2"],["▁A","m"],["▁M","y"],["▁N","e"],["▁P","hysics"],["▁P","ro"],["▁Part","ic"],["▁The","n"],["▁U","n"],["▁U","nder"],["▁W","hy"],["▁a","m"],["▁a","uthority"],["▁ac","cept"],["▁ag","ainst"],["▁answ","er"],["▁b","l"],["▁c","oll"],["▁c","ould"],["▁c","rit"],["▁c","ult"],["▁com","m"],["▁cont","in"],["▁cont","rol"],["▁cur","rent"],["▁d","ark"],["▁d","es"],["▁d","et"],["▁d","irect"],["▁el","se"],["▁ex","pl"],["▁ex","t"],["▁f","und"],["▁frustr","ation"],["▁go","od"],["▁h","ad"],["▁j","ust"],["▁l","and"],["▁l","ine"],["▁l","ong"],["▁m","an"],["▁mo","ve"],["▁most","ly"],["▁p","er"],["▁polit","ical"],["▁problem","s"],["▁res","ult"],["▁s","ur"],["▁sh","ort"],["▁sh","ould"],["▁spec","ific"],["▁st","ay"],["▁st","ill"],["▁su","b"],["▁su","per"],["▁t","re"],["▁t","urn"],["▁tr","ans"],["▁v","ot"],["▁w","ay"],["▁wh","y"],["▁wor","th"],["9","9"],["a","im"],["a","pp"],["a","v"],["ac","y"],["agn","et"],["ant","s"],["ar","ly"],["ar","ter"],["at","ri"],["ation","al"],["ations","h"],["ationsh","ip"],["c","ent"],["d","s"],["er","g"],["ess","imism"],["et","ters"],["hilosop","hy"],["i","b"],["i","et"],["if","y"],["in","es"],["iqu","e"],["it","s"],["it","ut"],["l","u"],["mm","etry"],["n","ot"],["nc","es"],["od","y"],["on","ance"],["op","e"],["os","ing"],["ot","her"],["ow","ed"],["ow","s"],["rad","ict"],["re","ad"],["ri","es"],["ro","te"],["s","ide"],["st","anding"],["u","es"],["uc","h"],["ul","ation"],["v","ious"],["▁","5"],["▁C","on"],["▁Ch","arter"],["▁Coll","ider"],["▁E","ng"],["▁E","very"],["▁H","ad"],["▁L","arge"],["▁L","etters"],["▁Partic","le"],["▁S","en"],["▁S","ome"],["▁W","ith"],["▁W","or"],["▁a","fter"],["▁ar","ound"],["▁arg","u"],["▁as","k"],["▁ass","um"],["▁be","h"],["▁beli","e"],["▁c","are"],["▁c","y"],["▁cl","aim"],["▁const","ra"],["▁d","ata"],["▁dis","s"],["▁e","conom"],["▁e","ff"],["▁e","m"],["▁elect","ron"],["▁en","erg"],["▁en","g"],["▁ex","periment"],["▁f","our"],["▁g","r"],["▁g","row"],["▁gen","er"],["▁h","ist"],["▁happ","ens"],["▁in","d"],["▁in","t"],["▁l","ast"],["▁le","ast"],["▁m","ade"],["▁m","uch"],["▁ma","k"],["▁ne","ed"],["▁ne","ws"],["▁p","ers"],["▁p","ost"],["▁p","ract"],["▁pl","ace"],["▁pre","c"],["▁pro","t"],["▁reas","on"],["▁res","ist"],["▁s","econd"],["▁s","w"],["▁set","t"],["▁sm","all"],["▁st","ud"],["▁t","ry"],["▁th","ose"],["▁the","ir"],["▁the","n"],["▁v","al"],["▁w","rong"],["▁w","rote"],["0","8"],["O","b"],["a","il"],["ac","es"],["ac","hed"],["ad","l"],["al","i"],["al","ity"],["an","ism"],["an","iz"],["ar","ks"],["ar","m"],["as","ure"],["at","ore"],["b","ably"],["e","V"],["e","b"],["ef","ul"],["eng","ali"],["ent","ial"],["ep","end"],["er","ing"],["ere","nces"],["ff","ic"],["g","aniz"],["g","e"],["g","ot"],["i","ation"],["i","ew"],["i","ly"],["i","or"],["id","ing"],["in","ci"],["in","is"],["ip","ants"],["is","c"],["it","e"],["it","ions"],["le","ar"],["li","ament"],["m","ost"],["ment","s"],["n","ce"],["ne","ath"],["o","od"],["o","ving"],["ol","ve"],["olog","ical"],["om","p"],["op","eful"],["or","ation"],["or","d"],["os","ed"],["os","ity"],["ounc","il"],["ound","s"],["ow","n"],["p","ons"],["read","y"],["ribut","ed"],["s","elf"],["ser","v"],["serv","ation"],["st","ruct"],["t","hing"],["t","ing"],["u","ct"],["u","ine"],["ubl","is"],["ver","n"],["y","s"],["▁","20"],["▁1","9"],["▁B","engali"],["▁B","oth"],["▁Bangladesh","i"],["▁C","ouncil"],["▁Do","es"],["▁E","x"],["▁H","ow"],["▁Had","ron"],["▁M","ar"],["▁N","atore"],["▁Ref","erences"],["▁S","h"],["▁Wor","ld"],["▁ab","s"],["▁al","ready"],["▁am","ount"],["▁an","n"],["▁are","n"],["▁att","ached"],["▁att","ention"],["▁b","ack"],["▁buil","t"],["▁can","not"],["▁chang","ed"],["▁com","e"],["▁constra","int"],["▁cont","radict"],["▁crit","icism"],["▁cult","ure"],["▁dis","app"],["▁dis","p"],["▁do","ing"],["▁e","ach"],["▁e","as"],["▁f","ew"],["▁f","ound"],["▁fa","ir"],["▁feel","ing"],["▁for","m"],["▁g","iv"],["▁g","u"],["▁gen","uine"],["▁go","vern"],["▁happ","ened"],["▁in","v"],["▁inter","act"],["▁keep","s"],["▁l","arg"],["▁le","ar"],["▁lo","ok"],["▁m","agnet"],["▁m","ech"],["▁m","or"],["▁mak","es"],["▁me","asure"],["▁n","um"],["▁ne","xt"],["▁o","p"],["▁ob","vious"],["▁object","ive"],["▁or","dinary"],["▁or","ganiz"],["▁ow","n"],["▁par","liament"],["▁part","y"],["▁per","cent"],["▁pers","on"],["▁pr","inci"],["▁pre","dict"],["▁pre","t"],["▁pro","c"],["▁pro","p"],["▁produc","es"],["▁re","p"],["▁read","er"],["▁reg","ulation"],["▁rel","ationship"],["▁res","pons"],["▁sc","ale"],["▁st","art"],["▁st","re"],["▁system","s"],["▁the","se"],["▁to","ward"],["▁u","se"],["▁un","iverse"],["▁v","ol"],["▁w","on"],["▁we","e"],["▁wor","ld"],["1","6"],["201","2"],["A","S"],["L","AS"],["M","S"],["Ob","servation"],["T","LAS"],["a","ke"],["a","uc"],["ab","oration"],["adl","ine"],["ain","s"],["am","a"],["ament","al"],["ang","er"],["at","s"],["atri","otic"],["auc","r"],["b","ody"],["c","c"],["cient","ific"],["com","f"],["comf","ort"],["ct","ion"],["ear","ch"],["ect","or"],["edi","ence"],["ell","ig"],["em","ent"],["em","p"],["enc","y"],["ere","d"],["ert","ain"],["g","ing"],["he","s"],["hys","ic"],["i","ence"],["ic","ation"],["ict","ure"],["id","ent"],["id","es"],["id","ual"],["im","es"],["imp","ly"],["in","ed"],["in","s"],["ine","ering"],["ing","ful"],["ing","le"],["ing","ly"],["ir","m"],["ir","t"],["is","ions"],["it","al"],["it","ive"],["l","ict"],["l","ish"],["l","l"],["l","p"],["lud","ing"],["m","iss"],["n","al"],["n","er"],["o","ks"],["ogn","itive"],["om","en"],["om","y"],["on","th"],["onth","s"],["ou","d"],["ough","ly"],["ous","and"],["ow","er"],["oy","ed"],["p","are"],["pl","es"],["re","as"],["re","e"],["re","m"],["s","ed"],["st","ract"],["sy","ch"],["u","ce"],["u","ly"],["u","p"],["ul","es"],["ur","ate"],["ure","aucr"],["ut","ing"],["v","en"],["vel","op"],["w","here"],["w","or"],["▁","K"],["▁","ident"],["▁","imp"],["▁","ro"],["▁1","0"],["▁1","00"],["▁1","2"],["▁7","16"],["▁A","I"],["▁A","TLAS"],["▁C","MS"],["▁C","ount"],["▁Coll","aboration"],["▁Eng","lish"],["▁Ex","periment"],["▁F","ind"],["▁F","rom"],["▁J","uly"],["▁M","ass"],["▁M","ost"],["▁Ne","ither"],["▁O","ne"],["▁S","i"],["▁Sto","icism"],["▁Under","standing"],["▁V","id"],["▁W","hen"],["▁W","here"],["▁W","rit"],["▁ab","stract"],["▁ac","ross"],["▁ad","d"],["▁ad","v"],["▁al","most"],["▁an","other"],["▁app","ear"],["▁app","ro"],["▁ask","ed"],["▁b","ad"]],"example":{"word":"Bangladesh","steps":["▁ B a n g l a d e s h","▁ B a n g l a d es h","▁ B an g l a d es h","▁ B an g l ad es h","▁B an g l ad es h","▁B ang l ad es h","▁B ang l ades h","▁Bang l ades h","▁Bang l adesh","▁Bang ladesh","▁Bangladesh"]}}
